{
  "<PAD>": 0,
  "<UNK>": 1,
  "0": 2,
  "1": 3,
  "2": 4,
  "3": 5,
  "4": 6,
  "5": 7,
  "6": 8,
  "7": 9,
  "8": 10,
  "9": 11,
  "A": 12,
  "B": 13,
  "C": 14,
  "D": 15,
  "E": 16,
  "F": 17,
  "G": 18,
  "H": 19,
  "I": 20,
  "J": 21,
  "K": 22,
  "L": 23,
  "M": 24,
  "N": 25,
  "O": 26,
  "P": 27,
  "Q": 28,
  "R": 29,
  "S": 30,
  "T": 31,
  "U": 32,
  "V": 33,
  "W": 34,
  "X": 35,
  "Y": 36,
  "Z": 37,
  "a": 38,
  "b": 39,
  "c": 40,
  "d": 41,
  "e": 42,
  "f": 43,
  "g": 44,
  "h": 45,
  "i": 46,
  "j": 47,
  "k": 48,
  "l": 49,
  "m": 50,
  "n": 51,
  "o": 52,
  "p": 53,
  "q": 54,
  "r": 55,
  "s": 56,
  "t": 57,
  "u": 58,
  "v": 59,
  "w": 60,
  "x": 61,
  "y": 62,
  "z": 63,
  "°": 64,
  "·": 65,
  "½": 66,
  "×": 67,
  "Ø": 68,
  "˝": 69,
  "π": 70,
  "ං": 71,
  "අ": 72,
  "අං": 73,
  "අැ": 74,
  "ආ": 75,
  "ආං": 76,
  "ඇ": 77,
  "ඈ": 78,
  "ඉ": 79,
  "ඉං": 80,
  "ඊ": 81,
  "උ": 82,
  "ඌ": 83,
  "ඍ": 84,
  "එ": 85,
  "එං": 86,
  "එ්": 87,
  "ඒ": 88,
  "ඓ": 89,
  "ඔ": 90,
  "ඕ": 91,
  "ඖ": 92,
  "ක": 93,
  "කං": 94,
  "ක්": 95,
  "කා": 96,
  "කැ": 97,
  "කෑ": 98,
  "කි": 99,
  "කී": 100,
  "කු": 101,
  "කූ": 102,
  "කෘ": 103,
  "කෙ": 104,
  "කේ": 105,
  "කො": 106,
  "කෝ": 107,
  "කෞ": 108,
  "කෲ": 109,
  "ඛ": 110,
  "ඛ්": 111,
  "ඛා": 112,
  "ඛි": 113,
  "ඛී": 114,
  "ඛු": 115,
  "ඛෙ": 116,
  "ඛෝ": 117,
  "ග": 118,
  "ගං": 119,
  "ග්": 120,
  "ගා": 121,
  "ගැ": 122,
  "ගෑ": 123,
  "ගි": 124,
  "ගී": 125,
  "ගු": 126,
  "ගූ": 127,
  "ගෘ": 128,
  "ගෙ": 129,
  "ගේ": 130,
  "ගො": 131,
  "ගෝ": 132,
  "ගෞ": 133,
  "ඝ": 134,
  "ඝ්": 135,
  "ඝා": 136,
  "ඝු": 137,
  "ඝෝ": 138,
  "ඟ": 139,
  "ඟා": 140,
  "ඟි": 141,
  "ඟී": 142,
  "ඟු": 143,
  "ඟෙ": 144,
  "ඟේ": 145,
  "ච": 146,
  "චං": 147,
  "ච්": 148,
  "චා": 149,
  "චැ": 150,
  "චෑ": 151,
  "චි": 152,
  "චී": 153,
  "චු": 154,
  "චූ": 155,
  "චෙ": 156,
  "චේ": 157,
  "චෛ": 158,
  "චො": 159,
  "චෝ": 160,
  "චෞ": 161,
  "ඡ": 162,
  "ඡා": 163,
  "ඡි": 164,
  "ඡේ": 165,
  "ජ": 166,
  "ජං": 167,
  "ජ්": 168,
  "ජා": 169,
  "ජැ": 170,
  "ජෑ": 171,
  "ජි": 172,
  "ජී": 173,
  "ජු": 174,
  "ජූ": 175,
  "ජෙ": 176,
  "ජේ": 177,
  "ජෛ": 178,
  "ජො": 179,
  "ජෝ": 180,
  "ඣි": 181,
  "ඤ": 182,
  "ඤ්": 183,
  "ඤා": 184,
  "ඥ": 185,
  "ට": 186,
  "ට්": 187,
  "ටා": 188,
  "ටැ": 189,
  "ටෑ": 190,
  "ටි": 191,
  "ටී": 192,
  "ටු": 193,
  "ටූ": 194,
  "ටෙ": 195,
  "ටේ": 196,
  "ටො": 197,
  "ටෝ": 198,
  "ඨ": 199,
  "ඨා": 200,
  "ඨි": 201,
  "ඨී": 202,
  "ඩ": 203,
  "ඩං": 204,
  "ඩ්": 205,
  "ඩා": 206,
  "ඩැ": 207,
  "ඩි": 208,
  "ඩී": 209,
  "ඩු": 210,
  "ඩෘ": 211,
  "ඩෙ": 212,
  "ඩේ": 213,
  "ඩො": 214,
  "ඩෝ": 215,
  "ඩෲ": 216,
  "ඪ": 217,
  "ඪා": 218,
  "ණ": 219,
  "ණං": 220,
  "ණ්": 221,
  "ණා": 222,
  "ණෑ": 223,
  "ණි": 224,
  "ණී": 225,
  "ණු": 226,
  "ණෙ": 227,
  "ණේ": 228,
  "ණෝ": 229,
  "ඬ": 230,
  "ඬු": 231,
  "ත": 232,
  "තං": 233,
  "ත්": 234,
  "තා": 235,
  "තැ": 236,
  "තෑ": 237,
  "ති": 238,
  "තී": 239,
  "තු": 240,
  "තූ": 241,
  "තෘ": 242,
  "තෙ": 243,
  "තේ": 244,
  "තො": 245,
  "තෝ": 246,
  "ථ": 247,
  "ථ්": 248,
  "ථා": 249,
  "ථි": 250,
  "ථී": 251,
  "ථු": 252,
  "ථූ": 253,
  "ථෙ": 254,
  "ථේ": 255,
  "ද": 256,
  "ද්": 257,
  "දා": 258,
  "දැ": 259,
  "දෑ": 260,
  "දි": 261,
  "දී": 262,
  "දු": 263,
  "දූ": 264,
  "දෘ": 265,
  "දෙ": 266,
  "දේ": 267,
  "දෛ": 268,
  "දො": 269,
  "දෝ": 270,
  "ධ": 271,
  "ධ්": 272,
  "ධා": 273,
  "ධි": 274,
  "ධී": 275,
  "ධු": 276,
  "ධූ": 277,
  "ධෘ": 278,
  "ධෛ": 279,
  "ධෝ": 280,
  "න": 281,
  "නං": 282,
  "නඃ": 283,
  "න්": 284,
  "නා": 285,
  "නැ": 286,
  "නෑ": 287,
  "නි": 288,
  "නී": 289,
  "නු": 290,
  "නූ": 291,
  "නෙ": 292,
  "නේ": 293,
  "නෛ": 294,
  "නො": 295,
  "නෝ": 296,
  "නෞ": 297,
  "ඳ": 298,
  "ඳා": 299,
  "ඳි": 300,
  "ඳී": 301,
  "ඳු": 302,
  "ඳෙ": 303,
  "ඳේ": 304,
  "ප": 305,
  "පං": 306,
  "ප්": 307,
  "පා": 308,
  "පැ": 309,
  "පෑ": 310,
  "පි": 311,
  "පී": 312,
  "පු": 313,
  "පූ": 314,
  "පෘ": 315,
  "පෙ": 316,
  "පේ": 317,
  "පො": 318,
  "පෝ": 319,
  "පෞ": 320,
  "ඵ": 321,
  "ඵ්": 322,
  "ඵු": 323,
  "ඵෙ": 324,
  "බ": 325,
  "බං": 326,
  "බ්": 327,
  "බා": 328,
  "බැ": 329,
  "බෑ": 330,
  "බි": 331,
  "බී": 332,
  "බු": 333,
  "බූ": 334,
  "බෙ": 335,
  "බේ": 336,
  "බො": 337,
  "බෝ": 338,
  "බෞ": 339,
  "බෲ": 340,
  "භ": 341,
  "භ්": 342,
  "භා": 343,
  "භි": 344,
  "භී": 345,
  "භු": 346,
  "භූ": 347,
  "භේ": 348,
  "භෝ": 349,
  "භෞ": 350,
  "ම": 351,
  "මං": 352,
  "ම්": 353,
  "මා": 354,
  "මැ": 355,
  "මෑ": 356,
  "මි": 357,
  "මී": 358,
  "මු": 359,
  "මූ": 360,
  "මෘ": 361,
  "මෙ": 362,
  "මේ": 363,
  "මෛ": 364,
  "මො": 365,
  "මෝ": 366,
  "මෞ": 367,
  "ඹ": 368,
  "ඹා": 369,
  "ඹි": 370,
  "ඹී": 371,
  "ඹු": 372,
  "ඹූ": 373,
  "ඹෙ": 374,
  "ය": 375,
  "යං": 376,
  "යා": 377,
  "යැ": 378,
  "යෑ": 379,
  "යි": 380,
  "යී": 381,
  "යු": 382,
  "යූ": 383,
  "යෙ": 384,
  "යේ": 385,
  "යො": 386,
  "යෝ": 387,
  "යෞ": 388,
  "ර": 389,
  "රං": 390,
  "ර්": 391,
  "රා": 392,
  "රැ": 393,
  "රෑ": 394,
  "රි": 395,
  "රී": 396,
  "රු": 397,
  "රූ": 398,
  "රෙ": 399,
  "රේ": 400,
  "රො": 401,
  "රෝ": 402,
  "රෞ": 403,
  "ල": 404,
  "ලං": 405,
  "ල්": 406,
  "ලා": 407,
  "ලැ": 408,
  "ලෑ": 409,
  "ලි": 410,
  "ලී": 411,
  "ලු": 412,
  "ලූ": 413,
  "ලෙ": 414,
  "ලේ": 415,
  "ලෛ": 416,
  "ලො": 417,
  "ලෝ": 418,
  "ලෞ": 419,
  "ව": 420,
  "වං": 421,
  "ව්": 422,
  "වා": 423,
  "වැ": 424,
  "වෑ": 425,
  "වි": 426,
  "වී": 427,
  "වු": 428,
  "වූ": 429,
  "වෘ": 430,
  "වෙ": 431,
  "වේ": 432,
  "වෛ": 433,
  "වො": 434,
  "වෝ": 435,
  "ශ": 436,
  "ශං": 437,
  "ශ්": 438,
  "ශා": 439,
  "ශි": 440,
  "ශී": 441,
  "ශු": 442,
  "ශූ": 443,
  "ශෘ": 444,
  "ශේ": 445,
  "ශෛ": 446,
  "ශෝ": 447,
  "ෂ": 448,
  "ෂ්": 449,
  "ෂා": 450,
  "ෂැ": 451,
  "ෂෑ": 452,
  "ෂි": 453,
  "ෂී": 454,
  "ෂු": 455,
  "ෂූ": 456,
  "ෂෙ": 457,
  "ෂේ": 458,
  "ෂො": 459,
  "ෂෝ": 460,
  "ස": 461,
  "සං": 462,
  "ස්": 463,
  "සා": 464,
  "සැ": 465,
  "සෑ": 466,
  "සි": 467,
  "සී": 468,
  "සු": 469,
  "සූ": 470,
  "සෘ": 471,
  "සෙ": 472,
  "සේ": 473,
  "සෛ": 474,
  "සො": 475,
  "සෝ": 476,
  "සෞ": 477,
  "හ": 478,
  "හං": 479,
  "හ්": 480,
  "හා": 481,
  "හැ": 482,
  "හි": 483,
  "හී": 484,
  "හු": 485,
  "හූ": 486,
  "හෘ": 487,
  "හෙ": 488,
  "හේ": 489,
  "හො": 490,
  "හෝ": 491,
  "ළ": 492,
  "ළං": 493,
  "ළා": 494,
  "ළැ": 495,
  "ළෑ": 496,
  "ළි": 497,
  "ළී": 498,
  "ළු": 499,
  "ළෙ": 500,
  "ළේ": 501,
  "ළො": 502,
  "ළෝ": 503,
  "ෆ": 504,
  "ෆ්": 505,
  "ෆා": 506,
  "ෆැ": 507,
  "ෆි": 508,
  "ෆී": 509,
  "ෆු": 510,
  "ෆෙ": 511,
  "ෆේ": 512,
  "ෆො": 513,
  "ෆෝ": 514,
  "්": 515,
  "ා": 516,
  "ෙ": 517,
  "ෟ": 518,
  "෴": 519,
  "​": 520,
  "‌": 521,
  "‍": 522,
  "‎": 523,
  "–": 524,
  "—": 525,
  "‘": 526,
  "’": 527,
  "“": 528,
  "”": 529,
  "•": 530,
  "…": 531,
  "→": 532,
  "−": 533,
  "●": 534,
  "김": 535,
  "씨": 536,
  "이": 537,
  "": 538,
  "": 539
}