{
    "»": 0,
    "መ": 1,
    "💻": 2,
    "ˈ": 3,
    "🙊": 4,
    "D": 5,
    "ծ": 6,
    "නේ": 7,
    "😐": 8,
    "ධෑ": 9,
    "연": 10,
    "አ": 11,
    "යඃ": 12,
    "ู": 13,
    "ඔ්": 14,
    "ථ්": 15,
    "ඇ": 16,
    "専": 17,
    "ஆ": 18,
    "ʒ": 19,
    "ඝී": 20,
    "پ": 21,
    "శ": 22,
    "Ã": 23,
    "📚": 24,
    "부": 25,
    "ሊ": 26,
    "배": 27,
    "බි": 28,
    "?": 29,
    "³": 30,
    "官": 31,
    "ඨ්": 32,
    "🐼": 33,
    "ج": 34,
    "ඳේ": 35,
    "ඟෑ": 36,
    "∶": 37,
    "ඩි": 38,
    "නී": 39,
    "≡": 40,
    "දු": 41,
    "මි": 42,
    "නෝ": 43,
    "ව්": 44,
    "↑": 45,
    "ए": 46,
    "स": 47,
    "බෞ": 48,
    "ℜ": 49,
    "出": 50,
    "ජ්": 51,
    "😖": 52,
    "🌻": 53,
    "ගි": 54,
    "ด": 55,
    "ሰ": 56,
    "එැ": 57,
    "ង": 58,
    "ලු": 59,
    "වූ": 60,
    "ʰ": 61,
    "⇪": 62,
    "ő": 63,
    "ඤු": 64,
    "N": 65,
    "⇝": 66,
    "ෂී": 67,
    "දං": 68,
    "저": 69,
    "ඝි": 70,
    "۷": 71,
    "ජැ": 72,
    "ੱ": 73,
    "^": 74,
    "ነ": 75,
    "ã": 76,
    "චෙ": 77,
    "♡": 78,
    "の": 79,
    "Ş": 80,
    "සේ": 81,
    "ਾ": 82,
    "௨": 83,
    "📅": 84,
    "영": 85,
    "ክ": 86,
    "ආෙ": 87,
    "ඍැ": 88,
    "ඬෑ": 89,
    "දෙ": 90,
    "በ": 91,
    "語": 92,
    "̴": 93,
    "🇸": 94,
    "ฉ": 95,
    "පෘ": 96,
    "😳": 97,
    "ශ": 98,
    "➚": 99,
    "ක": 100,
    "ब": 101,
    "☹": 102,
    "නෑ": 103,
    "භේ": 104,
    "北": 105,
    "有": 106,
    "ك": 107,
    "吏": 108,
    "බූ": 109,
    "👇": 110,
    "ෂො": 111,
    "😠": 112,
    "ع": 113,
    "י": 114,
    "හෲ": 115,
    "ḍ": 116,
    "ඞේ": 117,
    "紀": 118,
    "豪": 119,
    "නෛ": 120,
    "Ε": 121,
    "හෞ": 122,
    "╗": 123,
    "යෛ": 124,
    "සෞ": 125,
    "这": 126,
    "ති": 127,
    "ㄸ": 128,
    "즈": 129,
    "♐": 130,
    "කං": 131,
    "ළෑ": 132,
    "̯": 133,
    "ඔැ": 134,
    "通": 135,
    "ක්": 136,
    "ඝු": 137,
    "ඞි": 138,
    "局": 139,
    "ඬේ": 140,
    "❉": 141,
    "신": 142,
    "ඛු": 143,
    "ඞී": 144,
    "₹": 145,
    "・": 146,
    "§": 147,
    "": 148,
    "−": 149,
    "α": 150,
    "☀": 151,
    "➨": 152,
    "ඡු": 153,
    "♬": 154,
    "ﻲ": 155,
    "}": 156,
    "ඵෛ": 157,
    "පූ": 158,
    "·": 159,
    "චු": 160,
    "④": 161,
    "වේ": 162,
    "Æ": 163,
    "ਹ": 164,
    "Š": 165,
    "医": 166,
    "็": 167,
    "නැ": 168,
    "ණ": 169,
    "려": 170,
    "钱": 171,
    "{": 172,
    "呼": 173,
    "": 174,
    "p": 175,
    "­": 176,
    "ඝෘ": 177,
    "ණැ": 178,
    "鬲": 179,
    "’": 180,
    "ው": 181,
    "ς": 182,
    "х": 183,
    "ඉෙ": 184,
    "🏽": 185,
    "ʊ": 186,
    "ඩු": 187,
    "🌹": 188,
    "⋆": 189,
    "丂": 190,
    "్": 191,
    "โ": 192,
    "๑": 193,
    "樂": 194,
    "ካ": 195,
    "😱": 196,
    "දූ": 197,
    "满": 198,
    "ධු": 199,
    "⏰": 200,
    "ආ්": 201,
    "ටු": 202,
    "💡": 203,
    "ලඃ": 204,
    "ぎ": 205,
    "Г": 206,
    "병": 207,
    "🤣": 208,
    "ど": 209,
    "Ś": 210,
    "就": 211,
    "ร": 212,
    "笑": 213,
    "體": 214,
    "ශඃ": 215,
    "¨": 216,
    "ン": 217,
    "印": 218,
    "": 219,
    "උැ": 220,
    "➠": 221,
    "හෛ": 222,
    "ගෘ": 223,
    "杯": 224,
    "බෛ": 225,
    "٦": 226,
    "🎸": 227,
    "ா": 228,
    "ô": 229,
    "ḱ": 230,
    "යං": 231,
    "වෙ": 232,
    "据": 233,
    "කේ": 234,
    "ඨි": 235,
    "ඛි": 236,
    "も": 237,
    "ມ": 238,
    "ょ": 239,
    "ო": 240,
    "ங": 241,
    "ඳෑ": 242,
    "野": 243,
    "ඩේ": 244,
    "ಕ": 245,
    "ɐ": 246,
    "호": 247,
    "국": 248,
    "ඹා": 249,
    "ගී": 250,
    "Œ": 251,
    "株": 252,
    "사": 253,
    "w": 254,
    "පං": 255,
    "ණූ": 256,
    "වු": 257,
    "院": 258,
    "ඹ්": 259,
    "ළා": 260,
    "o": 261,
    "සු": 262,
    "චේ": 263,
    "ყ": 264,
    "☜": 265,
    "↳": 266,
    "🍕": 267,
    "у": 268,
    "හී": 269,
    "な": 270,
    "õ": 271,
    "ና": 272,
    "අා": 273,
    "ඐ": 274,
    "අු": 275,
    "O": 276,
    "ඤි": 277,
    "ගෛ": 278,
    "උෑ": 279,
    "진": 280,
    "එා": 281,
    "": 282,
    "。": 283,
    "පේ": 284,
    "ඬැ": 285,
    "ෂෞ": 286,
    "व": 287,
    "ో": 288,
    "කෑ": 289,
    "َ": 290,
    "Ⅲ": 291,
    "ජෑ": 292,
    "චෞ": 293,
    "ባ": 294,
    "🙈": 295,
    "උෘ": 296,
    "☻": 297,
    "නු": 298,
    "(": 299,
    "琮": 300,
    "˙": 301,
    "日": 302,
    "පා": 303,
    "…": 304,
    "භ": 305,
    "": 306,
    "ï": 307,
    "Λ": 308,
    "ඒි": 309,
    "": 310,
    "開": 311,
    "い": 312,
    "ል": 313,
    "ඇ්": 314,
    "": 315,
    "당": 316,
    "/": 317,
    "ल": 318,
    "할": 319,
    "□": 320,
    "": 321,
    "서": 322,
    "س": 323,
    "ඬි": 324,
    "🍶": 325,
    "ඔෘ": 326,
    "ඳෝ": 327,
    "]": 328,
    "සං": 329,
    "Ú": 330,
    "ស": 331,
    "Κ": 332,
    "": 333,
    "යෝ": 334,
    "🔴": 335,
    "ት": 336,
    "▪": 337,
    "ලෘ": 338,
    "ɪ": 339,
    "魏": 340,
    "රෑ": 341,
    "🔥": 342,
    "ඩෑ": 343,
    "⦁": 344,
    "ළෝ": 345,
    "事": 346,
    "한": 347,
    "Ф": 348,
    "体": 349,
    "": 350,
    "✺": 351,
    "පී": 352,
    "ඝ්": 353,
    "ඬෝ": 354,
    "ටෘ": 355,
    "芸": 356,
    "ඨෝ": 357,
    "යෑ": 358,
    "ඤී": 359,
    "Ø": 360,
    "⚑": 361,
    "මී": 362,
    "ª": 363,
    "В": 364,
    "የ": 365,
    "ලෙ": 366,
    "📱": 367,
    "学": 368,
    "ඪෘ": 369,
    "ិ": 370,
    "克": 371,
    "ඣ්": 372,
    "ī": 373,
    "ṃ": 374,
    "🏦": 375,
    "주": 376,
    "ŗ": 377,
    "个": 378,
    "_": 379,
    "Ӂ": 380,
    "葉": 381,
    "ビ": 382,
    "": 383,
    "ගේ": 384,
    "නෞ": 385,
    "軍": 386,
    "ْ": 387,
    "₂": 388,
    "ගෲ": 389,
    "💧": 390,
    "셔": 391,
    "歌": 392,
    "u": 393,
    "ටා": 394,
    "": 395,
    "ඟූ": 396,
    "ෂැ": 397,
    "ඳෙ": 398,
    "": 399,
    "ජෝ": 400,
    "නඃ": 401,
    "ゅ": 402,
    "❖": 403,
    "ඛෙ": 404,
    "ɡ": 405,
    "#": 406,
    "თ": 407,
    "Ž": 408,
    "察": 409,
    "ਮ": 410,
    "公": 411,
    "र": 412,
    "ɨ": 413,
    "ණා": 414,
    "ɕ": 415,
    "ʌ": 416,
    "☢": 417,
    "ෆෛ": 418,
    "": 419,
    "ெ": 420,
    "ෆෲ": 421,
    "ඊ්": 422,
    "අෙ": 423,
    "ṭ": 424,
    "—": 425,
    "🌍": 426,
    "ම්": 427,
    "ण": 428,
    "鑑": 429,
    "잘": 430,
    "ඝං": 431,
    "I": 432,
    "ජෘ": 433,
    "ය": 434,
    "Ñ": 435,
    "Ʌ": 436,
    "ă": 437,
    "ඹෑ": 438,
    "ㅂ": 439,
    "ඔෑ": 440,
    "යූ": 441,
    "料": 442,
    "ඔූ": 443,
    "చ": 444,
    "◙": 445,
    "ථෝ": 446,
    "ජු": 447,
    "์": 448,
    "ň": 449,
    "ไ": 450,
    "使": 451,
    "지": 452,
    "බ්": 453,
    "😕": 454,
    "Т": 455,
    "භ්": 456,
    "ලැ": 457,
    "ه": 458,
    "ታ": 459,
    "පෛ": 460,
    "▌": 461,
    "٩": 462,
    "η": 463,
    "格": 464,
    "ශි": 465,
    "記": 466,
    "ටෑ": 467,
    "8": 468,
    "ෆ": 469,
    "දෘ": 470,
    "ඇු": 471,
    "ඡී": 472,
    "ģ": 473,
    "　": 474,
    "◘": 475,
    "◣": 476,
    "ලේ": 477,
    "ඤඃ": 478,
    " ": 479,
    "Ħ": 480,
    "බ": 481,
    "ඤේ": 482,
    "ඩෞ": 483,
    "デ": 484,
    "‟": 485,
    "ළ්": 486,
    "ी": 487,
    "ඩ": 488,
    "z": 489,
    "ඵැ": 490,
    "පි": 491,
    "治": 492,
    "ෂේ": 493,
    "조": 494,
    "ෳ": 495,
    "ගං": 496,
    "ć": 497,
    "චඃ": 498,
    "Å": 499,
    "送": 500,
    "ත": 501,
    "‚": 502,
    "තෘ": 503,
    "😒": 504,
    "و": 505,
    "讀": 506,
    "字": 507,
    "テ": 508,
    "¼": 509,
    "උං": 510,
    "ح": 511,
    "Þ": 512,
    "詰": 513,
    "ద": 514,
    "📑": 515,
    "෦": 516,
    "ሌ": 517,
    "π": 518,
    "චැ": 519,
    "ඳ්": 520,
    "ඤො": 521,
    "ඓ": 522,
    "두": 523,
    "フ": 524,
    "💀": 525,
    "ሁ": 526,
    "ෆැ": 527,
    "生": 528,
    "라": 529,
    "門": 530,
    "ñ": 531,
    "ੀ": 532,
    "ඵ": 533,
    "ม": 534,
    "ෆේ": 535,
    "": 536,
    "🌸": 537,
    "🌷": 538,
    "වා": 539,
    "н": 540,
    "රේ": 541,
    "ෆෑ": 542,
    "💁": 543,
    "J": 544,
    "ਿ": 545,
    "සෘ": 546,
    "ඬො": 547,
    "ගැ": 548,
    "ෆ්": 549,
    "ච්": 550,
    "ඳී": 551,
    "ච": 552,
    "ඦ": 553,
    "⁣": 554,
    "त": 555,
    "ඡි": 556,
    "ඟ්": 557,
    "と": 558,
    "장": 559,
    "‍": 560,
    "ඡෙ": 561,
    "න්": 562,
    "ඤං": 563,
    "親": 564,
    "Û": 565,
    "ථො": 566,
    "ෟ": 567,
    "ł": 568,
    "‬": 569,
    "〒": 570,
    "අ": 571,
    "ළී": 572,
    "社": 573,
    "ඟේ": 574,
    "▻": 575,
    "♥": 576,
    "し": 577,
    "ﾑ": 578,
    "📞": 579,
    "っ": 580,
    "º": 581,
    "": 582,
    "ඛං": 583,
    "i": 584,
    "ඨෘ": 585,
    "m": 586,
    "තූ": 587,
    "乃": 588,
    "ส": 589,
    "ቅ": 590,
    "උෙ": 591,
    "在": 592,
    "ા": 593,
    "‪": 594,
    "🐱": 595,
    "ඩෲ": 596,
    "රැ": 597,
    "ටෛ": 598,
    "博": 599,
    "️": 600,
    "ហ": 601,
    "වෞ": 602,
    "ρ": 603,
    "ළ": 604,
    "ටෙ": 605,
    "😍": 606,
    "入": 607,
    "†": 608,
    "∘": 609,
    "보": 610,
    "ೀ": 611,
    "ඵ්": 612,
    "😓": 613,
    "文": 614,
    "投": 615,
    "": 616,
    "ඵී": 617,
    "資": 618,
    "භි": 619,
    "↕": 620,
    "A": 621,
    "⚓": 622,
    "න": 623,
    "ද": 624,
    "ඹ": 625,
    "ㅉ": 626,
    "ዳ": 627,
    "ඍ": 628,
    "่": 629,
    "\u0003": 630,
    "ù": 631,
    "ලං": 632,
    "😏": 633,
    "ు": 634,
    "➡": 635,
    "۞": 636,
    "א": 637,
    "兀": 638,
    "ඨං": 639,
    "ਨ": 640,
    "й": 641,
    "เ": 642,
    "ඝූ": 643,
    "決": 644,
    "晉": 645,
    "🚀": 646,
    "": 647,
    "කෝ": 648,
    "까": 649,
    "ி": 650,
    "රූ": 651,
    "ಳ": 652,
    "ඒ්": 653,
    "ඞෝ": 654,
    "ථු": 655,
    "つ": 656,
    "販": 657,
    "ළූ": 658,
    "ශා": 659,
    "ඬා": 660,
    "옹": 661,
    "ð": 662,
    "ூ": 663,
    "ગ": 664,
    "诶": 665,
    "💕": 666,
    "場": 667,
    "ථඃ": 668,
    "ی": 669,
    "👨": 670,
    "": 671,
    "👌": 672,
    "ඹැ": 673,
    "ජ": 674,
    ",": 675,
    "F": 676,
    "Ç": 677,
    "ó": 678,
    "": 679,
    "Ô": 680,
    "😬": 681,
    "කු": 682,
    "б": 683,
    "ඹේ": 684,
    "ν": 685,
    "¾": 686,
    "🙁": 687,
    "ග්": 688,
    "ප්": 689,
    "Ā": 690,
    "閉": 691,
    "ඉු": 692,
    "డ": 693,
    "🏆": 694,
    "සූ": 695,
    "ඊ": 696,
    "비": 697,
    "∙": 698,
    "ඣං": 699,
    "ọ": 700,
    "ṉ": 701,
    "す": 702,
    "රෘ": 703,
    "札": 704,
    "දෛ": 705,
    "🇰": 706,
    "※": 707,
    "පෝ": 708,
    "繁": 709,
    "K": 710,
    "☸": 711,
    "ඩී": 712,
    "ජෞ": 713,
    "ー": 714,
    "河": 715,
    "\\": 716,
    "ב": 717,
    "මෑ": 718,
    "ටො": 719,
    "ǐ": 720,
    "ඞො": 721,
    "↯": 722,
    "ష": 723,
    "ஞ": 724,
    "⇔": 725,
    "ඩූ": 726,
    "ඟො": 727,
    "✿": 728,
    "": 729,
    "м": 730,
    "❶": 731,
    "ඳැ": 732,
    "ښ": 733,
    "✉": 734,
    "ඕෘ": 735,
    "භී": 736,
    "ඔි": 737,
    "哪": 738,
    "ග": 739,
    "🏻": 740,
    "ε": 741,
    "ழ": 742,
    "符": 743,
    "": 744,
    "නා": 745,
    "ǣ": 746,
    "ණෝ": 747,
    "ロ": 748,
    "ಜ": 749,
    "": 750,
    "À": 751,
    "와": 752,
    "ඕ": 753,
    "♣": 754,
    "බෘ": 755,
    "🙃": 756,
    "ෂං": 757,
    "ඵෝ": 758,
    "に": 759,
    "9": 760,
    "漢": 761,
    "කෘ": 762,
    "📖": 763,
    "ɳ": 764,
    "😭": 765,
    "ɛ": 766,
    "Ξ": 767,
    "ධං": 768,
    "😢": 769,
    "😯": 770,
    "දො": 771,
    "ச": 772,
    "සි": 773,
    "ඡ": 774,
    "ඇැ": 775,
    "ඊෙ": 776,
    "🌲": 777,
    "ラ": 778,
    "‡": 779,
    "ண": 780,
    "«": 781,
    "М": 782,
    "ች": 783,
    "ශැ": 784,
    "ɖ": 785,
    "හා": 786,
    "贝": 787,
    "ගූ": 788,
    "😞": 789,
    "6": 790,
    "ლ": 791,
    "İ": 792,
    "ㅆ": 793,
    "ُ": 794,
    "🔷": 795,
    "ණෑ": 796,
    "😗": 797,
    "ત": 798,
    "⇨": 799,
    "ಇ": 800,
    "✍": 801,
    "ට": 802,
    "曹": 803,
    " ": 804,
    "ධො": 805,
    "කෙ": 806,
    "ෆෘ": 807,
    "ඞ": 808,
    "": 809,
    "）": 810,
    "舊": 811,
    "@": 812,
    "ඪූ": 813,
    "수": 814,
    "🔘": 815,
    "ದ": 816,
    "ළේ": 817,
    "ś": 818,
    "간": 819,
    "豆": 820,
    "ፍ": 821,
    "": 822,
    "θ": 823,
    "සො": 824,
    "め": 825,
    "ඩා": 826,
    "ː": 827,
    "く": 828,
    "k": 829,
    "අ්": 830,
    "තං": 831,
    "◼": 832,
    "”": 833,
    "සෙ": 834,
    "節": 835,
    "ඪු": 836,
    "담": 837,
    "±": 838,
    "🕒": 839,
    "房": 840,
    "ගො": 841,
    "ඔී": 842,
    "௧": 843,
    "": 844,
    "😅": 845,
    "協": 846,
    "к": 847,
    "ධී": 848,
    "ණේ": 849,
    "ट": 850,
    "භෘ": 851,
    "麗": 852,
    "ලා": 853,
    "⋅": 854,
    "ඳු": 855,
    "දැ": 856,
    "₰": 857,
    "යෙ": 858,
    "خ": 859,
    "😂": 860,
    "ŭ": 861,
    "경": 862,
    "ټ": 863,
    "ජී": 864,
    "育": 865,
    "ﺎ": 866,
    "ẻ": 867,
    "ඵෘ": 868,
    "යෘ": 869,
    "🛌": 870,
    "ậ": 871,
    "平": 872,
    "ீ": 873,
    "Е": 874,
    "ල": 875,
    "経": 876,
    "ш": 877,
    "g": 878,
    "Ŵ": 879,
    "😘": 880,
    "ਗ": 881,
    "향": 882,
    "県": 883,
    "ㅇ": 884,
    "울": 885,
    "안": 886,
    "උු": 887,
    "ඡ්": 888,
    ":": 889,
    "♀": 890,
    "ළො": 891,
    "園": 892,
    "´": 893,
    "甫": 894,
    "ඛෝ": 895,
    "ඳ": 896,
    "인": 897,
    "තෲ": 898,
    "ඬු": 899,
    "💓": 900,
    "\u0014": 901,
    "ඹි": 902,
    "鄕": 903,
    "ඩෘ": 904,
    "高": 905,
    "̈": 906,
    "て": 907,
    "ඤ්": 908,
    "ර": 909,
    "部": 910,
    "ʼ": 911,
    "😎": 912,
    "ඝෝ": 913,
    "~": 914,
    "ඹෙ": 915,
    "👍": 916,
    "✅": 917,
    "ඤැ": 918,
    "¹": 919,
    "Ƹ": 920,
    "ඹෞ": 921,
    "圓": 922,
    "μ": 923,
    "ඵි": 924,
    "Đ": 925,
    "💗": 926,
    "च": 927,
    "ඡෘ": 928,
    "¢": 929,
    "ö": 930,
    "▃": 931,
    "🐌": 932,
    "西": 933,
    "─": 934,
    "ட": 935,
    "ජේ": 936,
    "": 937,
    "👎": 938,
    "‏": 939,
    "ㅈ": 940,
    "≤": 941,
    " ": 942,
    "商": 943,
    "∕": 944,
    "╔": 945,
    "ඇං": 946,
    "릴": 947,
    "℘": 948,
    "ණු": 949,
    "0": 950,
    "මෝ": 951,
    "🌺": 952,
    "වො": 953,
    "✓": 954,
    "ይ": 955,
    "寶": 956,
    "කෛ": 957,
    "知": 958,
    "警": 959,
    "￼": 960,
    "்": 961,
    "시": 962,
    "&": 963,
    "භෞ": 964,
    "ගෙ": 965,
    "ה": 966,
    "💞": 967,
    "运": 968,
    "": 969,
    "සා": 970,
    " ": 971,
    "✊": 972,
    "♜": 973,
    "】": 974,
    "ඤ": 975,
    "✪": 976,
    "प": 977,
    "ඛා": 978,
    "‫": 979,
    "ந": 980,
    "ን": 981,
    "": 982,
    "ँ": 983,
    "භෝ": 984,
    "Â": 985,
    "ඉ": 986,
    "උ්": 987,
    "т": 988,
    "වි": 989,
    "තෝ": 990,
    "f": 991,
    "ก": 992,
    "ط": 993,
    "٠": 994,
    "ඛඃ": 995,
    "舞": 996,
    "ㅣ": 997,
    "÷": 998,
    "ඈ": 999,
    "ඞූ": 1000,
    "定": 1001,
    "ධෙ": 1002,
    "ෆෙ": 1003,
    "යැ": 1004,
    "ඹෝ": 1005,
    "年": 1006,
    "නි": 1007,
    "ı": 1008,
    "අං": 1009,
    "": 1010,
    "ย": 1011,
    "à": 1012,
    "З": 1013,
    "ि": 1014,
    "G": 1015,
    "ඨැ": 1016,
    "店": 1017,
    "🔆": 1018,
    "ඞු": 1019,
    "♭": 1020,
    "අඃ": 1021,
    "ටේ": 1022,
    "ෆූ": 1023,
    ";": 1024,
    "พ": 1025,
    "ළි": 1026,
    "ʟ": 1027,
    "う": 1028,
    "ა": 1029,
    "天": 1030,
    "உ": 1031,
    "英": 1032,
    "ò": 1033,
    "හැ": 1034,
    "": 1035,
    "📝": 1036,
    "රෛ": 1037,
    "වෑ": 1038,
    "ජං": 1039,
    "ඔ": 1040,
    "🚈": 1041,
    "ㅃ": 1042,
    "λ": 1043,
    "🌞": 1044,
    "✚": 1045,
    "Q": 1046,
    "හේ": 1047,
    "ඏ": 1048,
    "\"": 1049,
    "ඔං": 1050,
    "₦": 1051,
    "ˌ": 1052,
    "¥": 1053,
    "网": 1054,
    "☞": 1055,
    "່": 1056,
    "ඝ": 1057,
    "▒": 1058,
    "陽": 1059,
    "ඈං": 1060,
    "蘭": 1061,
    "ು": 1062,
    "⁄": 1063,
    "නෘ": 1064,
    "ඡේ": 1065,
    "ㄲ": 1066,
    "ඬී": 1067,
    "චෑ": 1068,
    "ඟෝ": 1069,
    "პ": 1070,
    ".": 1071,
    "රෲ": 1072,
    "ධා": 1073,
    "ළැ": 1074,
    "í": 1075,
    "මූ": 1076,
    "ථි": 1077,
    "ό": 1078,
    "동": 1079,
    "ά": 1080,
    "用": 1081,
    "": 1082,
    "V": 1083,
    "鼎": 1084,
    "💖": 1085,
    "女": 1086,
    "ा": 1087,
    "ප": 1088,
    "ஜ": 1089,
    "ශූ": 1090,
    "ඪි": 1091,
    "κ": 1092,
    "℉": 1093,
    "þ": 1094,
    "ቁ": 1095,
    "එේ": 1096,
    "ර්": 1097,
    "팔": 1098,
    "ੈ": 1099,
    "Y": 1100,
    "🏠": 1101,
    "க": 1102,
    "ජි": 1103,
    "▲": 1104,
    "ụ": 1105,
    "ṁ": 1106,
    "名": 1107,
    "۶": 1108,
    "ඪී": 1109,
    "、": 1110,
    "任": 1111,
    "චෝ": 1112,
    "ඡැ": 1113,
    "ධෘ": 1114,
    "ධෲ": 1115,
    "족": 1116,
    "甦": 1117,
    "💹": 1118,
    "ඤා": 1119,
    "研": 1120,
    "υ": 1121,
    "සී": 1122,
    "ֻ": 1123,
    "►": 1124,
    "+": 1125,
    "ෆී": 1126,
    "‘": 1127,
    "😁": 1128,
    "ඣු": 1129,
    "ล": 1130,
    "": 1131,
    "е": 1132,
    "ය්": 1133,
    "מ": 1134,
    "唐": 1135,
    "ष": 1136,
    "ِ": 1137,
    "Ò": 1138,
    "හෝ": 1139,
    "😩": 1140,
    "放": 1141,
    "ु": 1142,
    "👏": 1143,
    "🙂": 1144,
    "ℯ": 1145,
    "-": 1146,
    "整": 1147,
    "එි": 1148,
    "雨": 1149,
    "ب": 1150,
    "ʃ": 1151,
    "Д": 1152,
    "サ": 1153,
    "ශෞ": 1154,
    "ለ": 1155,
    "∎": 1156,
    "ι": 1157,
    "블": 1158,
    "ඝො": 1159,
    "🚇": 1160,
    "Ö": 1161,
    "ț": 1162,
    "7": 1163,
    "කැ": 1164,
    "ගෞ": 1165,
    "ඟැ": 1166,
    "ス": 1167,
    "පඃ": 1168,
    "만": 1169,
    "📷": 1170,
    "食": 1171,
    "හං": 1172,
    "ඓං": 1173,
    "γ": 1174,
    "🔵": 1175,
    "ệ": 1176,
    "ே": 1177,
    "තෛ": 1178,
    "伎": 1179,
    "වඃ": 1180,
    "ද්": 1181,
    "ુ": 1182,
    "➦": 1183,
    "": 1184,
    "සෑ": 1185,
    "ඬ්": 1186,
    "А": 1187,
    "තඃ": 1188,
    "ණී": 1189,
    "😦": 1190,
    "ஸ": 1191,
    "¡": 1192,
    "ʂ": 1193,
    "ඣී": 1194,
    "මේ": 1195,
    "ලො": 1196,
    "ෂි": 1197,
    "ያ": 1198,
    "工": 1199,
    "ע": 1200,
    "빈": 1201,
    "▆": 1202,
    "ගු": 1203,
    "µ": 1204,
    "á": 1205,
    "ඒ": 1206,
    "ණො": 1207,
    "": 1208,
    "": 1209,
    "た": 1210,
    "▅": 1211,
    "ப": 1212,
    "도": 1213,
    "ටී": 1214,
    "a": 1215,
    "e": 1216,
    "ඹූ": 1217,
    "а": 1218,
    "，": 1219,
    "✈": 1220,
    "შ": 1221,
    "ω": 1222,
    "[": 1223,
    "щ": 1224,
    "ê": 1225,
    "â": 1226,
    "☚": 1227,
    "\u0002": 1228,
    "⌖": 1229,
    "순": 1230,
    "🍂": 1231,
    "ඊැ": 1232,
    "℃": 1233,
    "කූ": 1234,
    "ඌ": 1235,
    "තෞ": 1236,
    "ඛෘ": 1237,
    "ң": 1238,
    "戌": 1239,
    "อ": 1240,
    "😨": 1241,
    "ֹ": 1242,
    "ඩ්": 1243,
    "า": 1244,
    "☆": 1245,
    "ඪ්": 1246,
    "😡": 1247,
    "千": 1248,
    "ඡෛ": 1249,
    "田": 1250,
    "යී": 1251,
    "대": 1252,
    "결": 1253,
    "💎": 1254,
    "ඦා": 1255,
    "හ": 1256,
    "😄": 1257,
    "චි": 1258,
    "෴": 1259,
    "දෑ": 1260,
    "<": 1261,
    "ණෙ": 1262,
    "බං": 1263,
    "ん": 1264,
    "": 1265,
    "හෑ": 1266,
    "": 1267,
    "🔑": 1268,
    "ලි": 1269,
    "👈": 1270,
    "බා": 1271,
    "": 1272,
    "වෘ": 1273,
    "තැ": 1274,
    "චො": 1275,
    "哈": 1276,
    "ɒ": 1277,
    "": 1278,
    "口": 1279,
    "¦": 1280,
    "කා": 1281,
    "鈴": 1282,
    "ứ": 1283,
    "反": 1284,
    "ළං": 1285,
    "ㄱ": 1286,
    "බී": 1287,
    "උූ": 1288,
    "ŋ": 1289,
    "者": 1290,
    "'": 1291,
    "T": 1292,
    "【": 1293,
    "ሸ": 1294,
    "⚜": 1295,
    "≈": 1296,
    "ጣ": 1297,
    "య": 1298,
    "💩": 1299,
    "🎤": 1300,
    "É": 1301,
    "ළු": 1302,
    "👆": 1303,
    "☼": 1304,
    "δ": 1305,
    "ආඃ": 1306,
    "씨": 1307,
    "💥": 1308,
    "г": 1309,
    "Б": 1310,
    "ඩො": 1311,
    "ุ": 1312,
    "И": 1313,
    "๏": 1314,
    "😝": 1315,
    "ඵා": 1316,
    "ジ": 1317,
    "නං": 1318,
    "생": 1319,
    "": 1320,
    "ඣෝ": 1321,
    "ඉි": 1322,
    "ō": 1323,
    "ෂෙ": 1324,
    "වං": 1325,
    "ज": 1326,
    "": 1327,
    "කෞ": 1328,
    "市": 1329,
    "ü": 1330,
    "ל": 1331,
    "භූ": 1332,
    "ů": 1333,
    "ව": 1334,
    "P": 1335,
    "🇱": 1336,
    "🕛": 1337,
    "か": 1338,
    "Z": 1339,
    "ل": 1340,
    "ტ": 1341,
    "▼": 1342,
    "⛅": 1343,
    "☝": 1344,
    "ē": 1345,
    "ి": 1346,
    "営": 1347,
    "ශෙ": 1348,
    "W": 1349,
    "": 1350,
    "සඃ": 1351,
    "⛺": 1352,
    "": 1353,
    "ෂු": 1354,
    "ž": 1355,
    "තා": 1356,
    "Ê": 1357,
    "👹": 1358,
    "උී": 1359,
    "合": 1360,
    "ඨේ": 1361,
    "ಧ": 1362,
    "ﾶ": 1363,
    "♂": 1364,
    "ඖ": 1365,
    " ": 1366,
    "මෛ": 1367,
    "😃": 1368,
    "📲": 1369,
    "古": 1370,
    "ж": 1371,
    "j": 1372,
    "ශු": 1373,
    "➲": 1374,
    "с": 1375,
    "ā": 1376,
    "3": 1377,
    "お": 1378,
    "ඹු": 1379,
    "ნ": 1380,
    "証": 1381,
    "🤔": 1382,
    "고": 1383,
    "එං": 1384,
    "ř": 1385,
    "∏": 1386,
    "ථූ": 1387,
    "◀": 1388,
    "Õ": 1389,
    "ඇෙ": 1390,
    "艾": 1391,
    "Р": 1392,
    "ෆො": 1393,
    "ගා": 1394,
    "c": 1395,
    "🔫": 1396,
    "ඨෙ": 1397,
    "": 1398,
    "ජා": 1399,
    "의": 1400,
    "書": 1401,
    "ت": 1402,
    "๐": 1403,
    "🌴": 1404,
    "క": 1405,
    "श": 1406,
    "බෲ": 1407,
    "犬": 1408,
    " ": 1409,
    "රු": 1410,
    "": 1411,
    "ʔ": 1412,
    "🙄": 1413,
    "왕": 1414,
    "Л": 1415,
    "Ο": 1416,
    "未": 1417,
    "♨": 1418,
    "ز": 1419,
    "හු": 1420,
    "ඟා": 1421,
    "성": 1422,
    "क": 1423,
    "තො": 1424,
    "ලෛ": 1425,
    "ढ": 1426,
    "ແ": 1427,
    "〜": 1428,
    "ජෙ": 1429,
    "–": 1430,
    "🌟": 1431,
    "": 1432,
    "🏳": 1433,
    "ඍී": 1434,
    "オ": 1435,
    "ا": 1436,
    "නූ": 1437,
    "Α": 1438,
    "චූ": 1439,
    "😮": 1440,
    "ඵෑ": 1441,
    "🏃": 1442,
    "ඛො": 1443,
    "人": 1444,
    "ෂා": 1445,
    "狄": 1446,
    "රෙ": 1447,
    "ṅ": 1448,
    "අි": 1449,
    "ඤෝ": 1450,
    "ਡ": 1451,
    "ನ": 1452,
    "及": 1453,
    "ඩං": 1454,
    "р": 1455,
    "⇻": 1456,
    "🌼": 1457,
    "ٌ": 1458,
    "ர": 1459,
    "τ": 1460,
    "ǚ": 1461,
    "ඒෙ": 1462,
    "活": 1463,
    "මඃ": 1464,
    "ට්": 1465,
    "n": 1466,
    "行": 1467,
    "私": 1468,
    "යෞ": 1469,
    "ல": 1470,
    "X": 1471,
    "උා": 1472,
    "ඪෝ": 1473,
    "🚴": 1474,
    "ਬ": 1475,
    "ደ": 1476,
    "ඵො": 1477,
    "ו": 1478,
    "▶": 1479,
    "ய": 1480,
    "❤": 1481,
    "අෘ": 1482,
    "′": 1483,
    "★": 1484,
    "Δ": 1485,
    "î": 1486,
    "ር": 1487,
    "나": 1488,
    "۩": 1489,
    "ඎ": 1490,
    "ඨූ": 1491,
    "主": 1492,
    "๬": 1493,
    "": 1494,
    "攻": 1495,
    "숙": 1496,
    "": 1497,
    "小": 1498,
    "곰": 1499,
    "ن": 1500,
    "ඹී": 1501,
    "మ": 1502,
    "三": 1503,
    "由": 1504,
    "ඬං": 1505,
    "🍅": 1506,
    "තු": 1507,
    "ඉ්": 1508,
    "ㅅ": 1509,
    "ç": 1510,
    "数": 1511,
    "මෞ": 1512,
    "후": 1513,
    "ඟ": 1514,
    "$": 1515,
    "←": 1516,
    "ள": 1517,
    "ת": 1518,
    "€": 1519,
    "ṇ": 1520,
    "ｲ": 1521,
    "ವ": 1522,
    "ک": 1523,
    "ಂ": 1524,
    "ඛ්": 1525,
    "☯": 1526,
    "缶": 1527,
    "역": 1528,
    "": 1529,
    "වැ": 1530,
    "%": 1531,
    "☛": 1532,
    "▫": 1533,
    "තී": 1534,
    "≥": 1535,
    "E": 1536,
    "成": 1537,
    "È": 1538,
    "前": 1539,
    "¿": 1540,
    "බු": 1541,
    "ம": 1542,
    "レ": 1543,
    "ධෝ": 1544,
    "ශ්": 1545,
    "そ": 1546,
    "里": 1547,
    "ற": 1548,
    "û": 1549,
    "◇": 1550,
    "្": 1551,
    "許": 1552,
    "ድ": 1553,
    "壬": 1554,
    "`": 1555,
    "🛑": 1556,
    "國": 1557,
    "‌": 1558,
    "ʻ": 1559,
    "ධ්": 1560,
    "ஷ": 1561,
    "ク": 1562,
    "ථැ": 1563,
    "⚪": 1564,
    "ภ": 1565,
    "ඡා": 1566,
    "£": 1567,
    "ο": 1568,
    "​": 1569,
    "乎": 1570,
    "ě": 1571,
    "ר": 1572,
    "Ŧ": 1573,
    "➢": 1574,
    "ɔ": 1575,
    "චෛ": 1576,
    "S": 1577,
    "ી": 1578,
    "ඝේ": 1579,
    "හො": 1580,
    "q": 1581,
    "識": 1582,
    "з": 1583,
    "එෛ": 1584,
    "в": 1585,
    "カ": 1586,
    "➩": 1587,
    "රා": 1588,
    "🤷": 1589,
    "�": 1590,
    "💙": 1591,
    "―": 1592,
    "あ": 1593,
    "明": 1594,
    "තේ": 1595,
    "ņ": 1596,
    "හඃ": 1597,
    "U": 1598,
    "R": 1599,
    "ਤ": 1600,
    "ඨා": 1601,
    "م": 1602,
    "节": 1603,
    "♦": 1604,
    "පෞ": 1605,
    "මෙ": 1606,
    "ශී": 1607,
    "🔨": 1608,
    "ජො": 1609,
    "ე": 1610,
    "ّ": 1611,
    "े": 1612,
    "午": 1613,
    "එ්": 1614,
    "4": 1615,
    "ණ්": 1616,
    "*": 1617,
    "校": 1618,
    "̵": 1619,
    "ස්": 1620,
    "": 1621,
    "ඣ": 1622,
    "п": 1623,
    "아": 1624,
    "Ω": 1625,
    "é": 1626,
    "y": 1627,
    "දෞ": 1628,
    "ግ": 1629,
    "↓": 1630,
    "ﻨ": 1631,
    "ඪා": 1632,
    "ජෛ": 1633,
    "।": 1634,
    "斯": 1635,
    "ඛ": 1636,
    "ي": 1637,
    "„": 1638,
    "ť": 1639,
    "": 1640,
    "සෝ": 1641,
    "式": 1642,
    "л": 1643,
    "රො": 1644,
    "ධි": 1645,
    "і": 1646,
    "චා": 1647,
    "වෝ": 1648,
    "ආා": 1649,
    "ø": 1650,
    "わ": 1651,
    "එු": 1652,
    "👀": 1653,
    "ඞා": 1654,
    "ä": 1655,
    "ַ": 1656,
    "ලෝ": 1657,
    "த": 1658,
    "ወ": 1659,
    "මං": 1660,
    "ත්": 1661,
    "ま": 1662,
    "パ": 1663,
    "広": 1664,
    "会": 1665,
    "問": 1666,
    "": 1667,
    "志": 1668,
    "리": 1669,
    "丝": 1670,
    "о": 1671,
    "😊": 1672,
    "責": 1673,
    "ඛූ": 1674,
    "❣": 1675,
    "を": 1676,
    "😌": 1677,
    "ඬෙ": 1678,
    "杜": 1679,
    "∫": 1680,
    "එී": 1681,
    "ඝා": 1682,
    "군": 1683,
    "š": 1684,
    "ඵූ": 1685,
    "ί": 1686,
    "😆": 1687,
    "😛": 1688,
    "卡": 1689,
    "": 1690,
    "කී": 1691,
    "ටං": 1692,
    "를": 1693,
    "බැ": 1694,
    "💵": 1695,
    "™": 1696,
    "산": 1697,
    "🌎": 1698,
    "ශො": 1699,
    "乇": 1700,
    "↠": 1701,
    "💐": 1702,
    "බෙ": 1703,
    "元": 1704,
    "ඛේ": 1705,
    "2": 1706,
    "උ": 1707,
    "드": 1708,
    "දා": 1709,
    "ඳෘ": 1710,
    "මු": 1711,
    "後": 1712,
    "ë": 1713,
    "➤": 1714,
    "ׁ": 1715,
    "č": 1716,
    "材": 1717,
    "ණි": 1718,
    "¤": 1719,
    "″": 1720,
    "究": 1721,
    "ගෑ": 1722,
    "쉬": 1723,
    "d": 1724,
    "訥": 1725,
    "•": 1726,
    "城": 1727,
    "🚆": 1728,
    "→": 1729,
    "こ": 1730,
    "H": 1731,
    "म": 1732,
    "දේ": 1733,
    "රෞ": 1734,
    "“": 1735,
    "ඪො": 1736,
    "ሽ": 1737,
    "C": 1738,
    "ं": 1739,
    "ඳූ": 1740,
    "吗": 1741,
    "😵": 1742,
    "": 1743,
    "▂": 1744,
    "ඡො": 1745,
    "දඃ": 1746,
    "이": 1747,
    "⚘": 1748,
    "රී": 1749,
    "り": 1750,
    "🙉": 1751,
    "ф": 1752,
    "\b": 1753,
    "ඨී": 1754,
    "正": 1755,
    "催": 1756,
    "찰": 1757,
    "어": 1758,
    "👉": 1759,
    "ş": 1760,
    "ෆි": 1761,
    "ෆං": 1762,
    "ටෲ": 1763,
    "ማ": 1764,
    "ධ": 1765,
    "्": 1766,
    "業": 1767,
    "🎁": 1768,
    "": 1769,
    "භු": 1770,
    "ь": 1771,
    "近": 1772,
    "බෝ": 1773,
    "尺": 1774,
    "ㄷ": 1775,
    "ر": 1776,
    "වෛ": 1777,
    "√": 1778,
    "": 1779,
    "👓": 1780,
    "බේ": 1781,
    "L": 1782,
    "": 1783,
    "ඕං": 1784,
    "ෆෝ": 1785,
    "මැ": 1786,
    "ʈ": 1787,
    "ở": 1788,
    "😀": 1789,
    "ṣ": 1790,
    "©": 1791,
    "덕": 1792,
    "ం": 1793,
    "薦": 1794,
    "රි": 1795,
    "ם": 1796,
    "ハ": 1797,
    "ਰ": 1798,
    "ෂ": 1799,
    "®": 1800,
    "∋": 1801,
    "Ш": 1802,
    "සැ": 1803,
    "؟": 1804,
    "˝": 1805,
    "원": 1806,
    "ස": 1807,
    "и": 1808,
    "物": 1809,
    "🙌": 1810,
    "妇": 1811,
    "여": 1812,
    "˜": 1813,
    "べ": 1814,
    "ඟී": 1815,
    "ඛී": 1816,
    "✴": 1817,
    "‹": 1818,
    "💇": 1819,
    "💃": 1820,
    "ύ": 1821,
    "හ්": 1822,
    "භෛ": 1823,
    "ੁ": 1824,
    "வ": 1825,
    "යේ": 1826,
    "▬": 1827,
    "යු": 1828,
    "දෝ": 1829,
    "ධැ": 1830,
    "﻿": 1831,
    "😔": 1832,
    "ŝ": 1833,
    "職": 1834,
    "П": 1835,
    "✌": 1836,
    "ටෞ": 1837,
    "გ": 1838,
    "¯": 1839,
    "น": 1840,
    "说": 1841,
    "飛": 1842,
    "ة": 1843,
    "යි": 1844,
    "ገ": 1845,
    "ಯ": 1846,
    "පො": 1847,
    "ථේ": 1848,
    "å": 1849,
    "ථ": 1850,
    "ෂෘ": 1851,
    "!": 1852,
    "육": 1853,
    "ह": 1854,
    "ú": 1855,
    "ටූ": 1856,
    "祭": 1857,
    "せ": 1858,
    "භෙ": 1859,
    "░": 1860,
    "烧": 1861,
    "🧗": 1862,
    "තෙ": 1863,
    "r": 1864,
    "☂": 1865,
    "කො": 1866,
    "ඩෛ": 1867,
    "æ": 1868,
    "∞": 1869,
    "ิ": 1870,
    "和": 1871,
    "ටි": 1872,
    "ථෙ": 1873,
    "ﷺ": 1874,
    "": 1875,
    "ෂෑ": 1876,
    "ලී": 1877,
    "ගෝ": 1878,
    "❋": 1879,
    "ඈෑ": 1880,
    "ト": 1881,
    "හි": 1882,
    "ටැ": 1883,
    "❸": 1884,
    "ශෲ": 1885,
    "ලෑ": 1886,
    "➧": 1887,
    "📕": 1888,
    "ණං": 1889,
    "ලූ": 1890,
    "◄": 1891,
    "ඟු": 1892,
    "ශේ": 1893,
    "К": 1894,
    "Ó": 1895,
    "ඵු": 1896,
    "": 1897,
    "ਵ": 1898,
    "͡": 1899,
    "": 1900,
    "🌊": 1901,
    "ತ": 1902,
    "5": 1903,
    "සෛ": 1904,
    "⭐": 1905,
    "‎": 1906,
    "⇒": 1907,
    "ෆෞ": 1908,
    "幣": 1909,
    "🖤": 1910,
    "シ": 1911,
    "ṟ": 1912,
    "╮": 1913,
    "☟": 1914,
    "පෲ": 1915,
    "כ": 1916,
    "遅": 1917,
    "😉": 1918,
    "අැ": 1919,
    "■": 1920,
    "我": 1921,
    "අෑ": 1922,
    "B": 1923,
    "მ": 1924,
    "◢": 1925,
    "භො": 1926,
    "タ": 1927,
    "දෲ": 1928,
    "ū": 1929,
    "ዬ": 1930,
    "ኋ": 1931,
    "½": 1932,
    "族": 1933,
    "β": 1934,
    "ល": 1935,
    "ඵෙ": 1936,
    "ඤෑ": 1937,
    "જ": 1938,
    "ෂෝ": 1939,
    "🤗": 1940,
    "ვ": 1941,
    "×": 1942,
    "ش": 1943,
    "ℓ": 1944,
    "ง": 1945,
    "වෲ": 1946,
    "维": 1947,
    "녕": 1948,
    "Ţ": 1949,
    "M": 1950,
    "": 1951,
    "කඃ": 1952,
    "🏁": 1953,
    "💰": 1954,
    "本": 1955,
    "█": 1956,
    "හෘ": 1957,
    "l": 1958,
    "ඩෝ": 1959,
    "යා": 1960,
    "😥": 1961,
    "ः": 1962,
    "Ʒ": 1963,
    "ඳි": 1964,
    "曜": 1965,
    "弘": 1966,
    "ළෙ": 1967,
    "動": 1968,
    "☺": 1969,
    "යො": 1970,
    "应": 1971,
    "プ": 1972,
    "ජූ": 1973,
    "φ": 1974,
    "ძ": 1975,
    "✖": 1976,
    "h": 1977,
    "井": 1978,
    "錢": 1979,
    "ɑ": 1980,
    "ඨ": 1981,
    "ශං": 1982,
    "的": 1983,
    "පැ": 1984,
    "෿": 1985,
    "ְ": 1986,
    "ඳො": 1987,
    "නෙ": 1988,
    "": 1989,
    "⇜": 1990,
    "ÿ": 1991,
    "ල්": 1992,
    "ඩැ": 1993,
    "ு": 1994,
    "ඛෑ": 1995,
    "特": 1996,
    "は": 1997,
    "۱": 1998,
    "🚗": 1999,
    "ඡෝ": 2000,
    "ශෛ": 2001,
    "భ": 2002,
    "౦": 2003,
    "ඟං": 2004,
    "እ": 2005,
    "තෑ": 2006,
    "ශෑ": 2007,
    "ධේ": 2008,
    "ை": 2009,
    "ы": 2010,
    "Ὑ": 2011,
    "ບ": 2012,
    "정": 2013,
    "ඹො": 2014,
    "ථී": 2015,
    "ඟෙ": 2016,
    "›": 2017,
    "🙏": 2018,
    "➣": 2019,
    "ධෞ": 2020,
    "🎰": 2021,
    "ථා": 2022,
    "ف": 2023,
    "ə": 2024,
    "ඪ": 2025,
    "👼": 2026,
    "ರ": 2027,
    "Ŝ": 2028,
    "新": 2029,
    "ටෝ": 2030,
    "ም": 2031,
    ")": 2032,
    "v": 2033,
    "ص": 2034,
    "ئ": 2035,
    "兵": 2036,
    "ඛැ": 2037,
    "ෂඃ": 2038,
    "Ü": 2039,
    "न": 2040,
    "ම": 2041,
    "я": 2042,
    "ہ": 2043,
    "Γ": 2044,
    "ශෝ": 2045,
    "இ": 2046,
    "°": 2047,
    "": 2048,
    "（": 2049,
    "訣": 2050,
    "එෙ": 2051,
    "=": 2052,
    "ッ": 2053,
    "ป": 2054,
    "Σ": 2055,
    "堡": 2056,
    "ඬ": 2057,
    "✘": 2058,
    " ": 2059,
    "۹": 2060,
    "包": 2061,
    "д": 2062,
    "Π": 2063,
    "ඉා": 2064,
    "♪": 2065,
    "ලෞ": 2066,
    "": 2067,
    "පු": 2068,
    "ධෛ": 2069,
    "헌": 2070,
    "එ": 2071,
    "භැ": 2072,
    "ಅ": 2073,
    "‑": 2074,
    "Ἀ": 2075,
    "¶": 2076,
    "": 2077,
    "є": 2078,
    "s": 2079,
    "リ": 2080,
    "ඉං": 2081,
    "ඨො": 2082,
    "🤓": 2083,
    "إ": 2084,
    "ோ": 2085,
    "ඍ්": 2086,
    "💠": 2087,
    "击": 2088,
    "ඕෙ": 2089,
    "☖": 2090,
    "ඒං": 2091,
    "ή": 2092,
    "ඨු": 2093,
    "මො": 2094,
    "x": 2095,
    "د": 2096,
    "ﻟ": 2097,
    "ආ": 2098,
    "ඔු": 2099,
    "客": 2100,
    "🏿": 2101,
    "少": 2102,
    "☎": 2103,
    "ඔෙ": 2104,
    "↔": 2105,
    "ඳං": 2106,
    "租": 2107,
    "😲": 2108,
    "🔖": 2109,
    "💯": 2110,
    "ඉැ": 2111,
    "구": 2112,
    "が": 2113,
    "": 2114,
    "වී": 2115,
    "ඳා": 2116,
    "රං": 2117,
    "චං": 2118,
    "：": 2119,
    "බෑ": 2120,
    "ש": 2121,
    "ʁ": 2122,
    "ණෘ": 2123,
    "සෲ": 2124,
    "ả": 2125,
    "ጥ": 2126,
    "ඇඃ": 2127,
    "ಿ": 2128,
    "😇": 2129,
    "🚘": 2130,
    "并": 2131,
    "천": 2132,
    "რ": 2133,
    "ඤූ": 2134,
    "ඬූ": 2135,
    "ช": 2136,
    "¸": 2137,
    "": 2138,
    "ਸ": 2139,
    "♚": 2140,
    "﴿": 2141,
    "මා": 2142,
    "⏳": 2143,
    "හූ": 2144,
    "－": 2145,
    "": 2146,
    "නො": 2147,
    "╰": 2148,
    "ඵං": 2149,
    "̃": 2150,
    "汉": 2151,
    "●": 2152,
    "ḷ": 2153,
    "²": 2154,
    "▷": 2155,
    "ი": 2156,
    "ア": 2157,
    "ෂෛ": 2158,
    "🎼": 2159,
    "": 2160,
    "භෑ": 2161,
    "♠": 2162,
    "රෝ": 2163,
    "🚉": 2164,
    "ህ": 2165,
    "乾": 2166,
    "අේ": 2167,
    "ٹ": 2168,
    "卒": 2169,
    ">": 2170,
    "ર": 2171,
    "දී": 2172,
    "ඩෙ": 2173,
    "推": 2174,
    "ඥ": 2175,
    "ኛ": 2176,
    "络": 2177,
    "ἄ": 2178,
    "t": 2179,
    "ඞ්": 2180,
    "😋": 2181,
    "ý": 2182,
    "∆": 2183,
    "ජඃ": 2184,
    "？": 2185,
    "れ": 2186,
    "ふ": 2187,
    "最": 2188,
    "🔬": 2189,
    "ἀ": 2190,
    "ථං": 2191,
    "排": 2192,
    "요": 2193,
    "್": 2194,
    "◎": 2195,
    "無": 2196,
    "ொ": 2197,
    "🔓": 2198,
    "භා": 2199,
    "": 2200,
    "ඝෙ": 2201,
    "😜": 2202,
    "С": 2203,
    "ඣා": 2204,
    "♊": 2205,
    "◆": 2206,
    "书": 2207,
    "☠": 2208,
    "χ": 2209,
    "b": 2210,
    "👭": 2211,
    "ﻬ": 2212,
    "德": 2213,
    "‐": 2214,
    "ඣි": 2215,
    "ධූ": 2216,
    "": 2217,
    "1": 2218,
    "공": 2219,
    "σ": 2220,
    "ළෘ": 2221,
    "அ": 2222,
    "贼": 2223,
    "래": 2224,
    "මෘ": 2225,
    "කෲ": 2226,
    "ì": 2227,
    "˚": 2228,
    "è": 2229,
    "🍔": 2230,
    "館": 2231,
    "ථෛ": 2232,
    "๒": 2233,
    "ц": 2234,
    "ඡං": 2235,
    "☐": 2236,
    "ෂ්": 2237,
    "✔": 2238,
    "චී": 2239,
    "👊": 2240,
    "ඔා": 2241,
    "ඤෙ": 2242,
    "ಗ": 2243,
    "ශෘ": 2244,
    "ಾ": 2245,
    "ආං": 2246,
    "ඟි": 2247,
    "හෙ": 2248,
    "大": 2249,
    "ෆු": 2250,
    "භං": 2251,
    "ன": 2252,
    "කි": 2253,
    "ෂූ": 2254,
    "♫": 2255,
    "පෙ": 2256,
    "ミ": 2257,
    "🇺": 2258,
    "Н": 2259,
    "尔": 2260,
    "▣": 2261,
    "ч": 2262,
    "‛": 2263,
    "දි": 2264,
    "පෑ": 2265,
    "ෆා": 2266,
    "ථෘ": 2267,
    "ャ": 2268,
    "ϕ": 2269,
    "ח": 2270,
    "多": 2271,
    "බො": 2272,
    "<unk>": 2273,
    "<pad>": 2274
}